10100011
00100101
00011110
01110011
10001100
10100011
00100101
00011110
01110011
10001100
10100011
00100101
00011110
01110011
10001100
00000000
00000000
00000000
00000000
11100011
01010100
11011100
10001000
10000000
11100011
01010100
11011100
10001000
10000000
11100011
01010100
11011100
10001000
10000000
00000000
00000000
00000000
00000000