00000000
00000000
00000000
00000000
11100100
01101100
11100110
01000001
11011011
11100100
01101100
11100110
01000001
11011011
11100100
01101100
11100110
01000001
11011011
00000000
00000000
00000000
00000000
10001110
01101010
00111111
11101010
00101001
10001110
01101010
00111111
11101010
00101001
10001110
01101010
00111111
11101010
00101001