00000000
00000000
00000000
00000000
01111111
01010101
11111110
11001000
00000000
01111111
01010101
11111110
11001000
00000000
01111111
01010101
11111110
11001000
00000000
00000000
00000000
00000000
11101110
00011110
11010010
00110001
10111011
11101110
00011110
11010010
00110001
10111011
11101110
00011110
11010010
00110001
10111011
00000000