00000000
00000000
01111110
11011000
00001101
01111000
00110101
01111110
11011000
00001101
01111000
00110101
01111110
11011000
00001101
01111000
00110101
00000000
00000000
00000000
00000000
01001111
01101111
01111010
11010100
00011111
01001111
01101111
01111010
11010100
00011111
01001111
01101111
01111010
11010100
00011111
00000000
00000000