00000000
11111100
10100000
00001100
01010110
00010111
11111100
10100000
00001100
01010110
00010111
11111100
10100000
00001100
01010110
00010111
00000000
00000000
00000000
00000000
01100100
00111010
11010100
00111100
00101000
01100100
00111010
11010100
00111100
00101000
01100100
00111010
11010100
00111100
00101000
00000000
00000000
00000000