11100100
01101100
11100110
01000001
11011011
00000000
01111111
01010101
11111110
11001000
01111110
11011000
00001101
01111000
00110101
11111100
10100000
00001100
01010110
00010111
10100011
00100101
00011110
01110011
10001100
10001110
01101010
00111111
11101010
00101001
11101110
00011110
11010010
00110001
10111011
01001111
01101111
01111010
11010100
00011111
01100100
00111010
11010100
00111100
00101000
11100011
01010100
11011100
10001000
10000000
